{
  "version": "1.0",
  "truncation": null,
  "padding": null,
  "added_tokens": [
    {
      "id": 0,
      "content": "<|endoftext|>",
      "single_word": false,
      "lstrip": false,
      "rstrip": false,
      "normalized": false,
      "special": true
    },
    {
      "id": 1,
      "content": "<pad>",
      "single_word": false,
      "lstrip": false,
      "rstrip": false,
      "normalized": false,
      "special": true
    }
  ],
  "normalizer": null,
  "pre_tokenizer": {
    "type": "ByteLevel",
    "add_prefix_space": false,
    "trim_offsets": true,
    "use_regex": true
  },
  "post_processor": {
    "type": "ByteLevel",
    "add_prefix_space": true,
    "trim_offsets": true,
    "use_regex": true
  },
  "decoder": {
    "type": "ByteLevel",
    "add_prefix_space": true,
    "trim_offsets": true,
    "use_regex": true
  },
  "model": {
    "type": "BPE",
    "dropout": null,
    "unk_token": null,
    "continuing_subword_prefix": null,
    "end_of_word_suffix": null,
    "fuse_unk": false,
    "byte_fallback": false,
    "ignore_merges": false,
    "vocab": {
      "<|endoftext|>": 0,
      "<pad>": 1,
      "!": 2,
      "\"": 3,
      "#": 4,
      "$": 5,
      "%": 6,
      "&": 7,
      "'": 8,
      "(": 9,
      ")": 10,
      "*": 11,
      "+": 12,
      ",": 13,
      "-": 14,
      ".": 15,
      "/": 16,
      "0": 17,
      "1": 18,
      "2": 19,
      "3": 20,
      "4": 21,
      "5": 22,
      "6": 23,
      "7": 24,
      "8": 25,
      "9": 26,
      ":": 27,
      ";": 28,
      "<": 29,
      "=": 30,
      ">": 31,
      "?": 32,
      "@": 33,
      "A": 34,
      "B": 35,
      "C": 36,
      "D": 37,
      "E": 38,
      "F": 39,
      "G": 40,
      "H": 41,
      "I": 42,
      "J": 43,
      "K": 44,
      "L": 45,
      "M": 46,
      "N": 47,
      "O": 48,
      "P": 49,
      "Q": 50,
      "R": 51,
      "S": 52,
      "T": 53,
      "U": 54,
      "V": 55,
      "W": 56,
      "X": 57,
      "Y": 58,
      "Z": 59,
      "[": 60,
      "\\": 61,
      "]": 62,
      "^": 63,
      "_": 64,
      "`": 65,
      "a": 66,
      "b": 67,
      "c": 68,
      "d": 69,
      "e": 70,
      "f": 71,
      "g": 72,
      "h": 73,
      "i": 74,
      "j": 75,
      "k": 76,
      "l": 77,
      "m": 78,
      "n": 79,
      "o": 80,
      "p": 81,
      "q": 82,
      "r": 83,
      "s": 84,
      "t": 85,
      "u": 86,
      "v": 87,
      "w": 88,
      "x": 89,
      "y": 90,
      "z": 91,
      "{": 92,
      "|": 93,
      "}": 94,
      "~": 95,
      "¡": 96,
      "¢": 97,
      "£": 98,
      "¤": 99,
      "¥": 100,
      "¦": 101,
      "§": 102,
      "¨": 103,
      "©": 104,
      "ª": 105,
      "«": 106,
      "¬": 107,
      "®": 108,
      "¯": 109,
      "°": 110,
      "±": 111,
      "²": 112,
      "³": 113,
      "´": 114,
      "µ": 115,
      "¶": 116,
      "·": 117,
      "¸": 118,
      "¹": 119,
      "º": 120,
      "»": 121,
      "¼": 122,
      "½": 123,
      "¾": 124,
      "¿": 125,
      "À": 126,
      "Á": 127,
      "Â": 128,
      "Ã": 129,
      "Ä": 130,
      "Å": 131,
      "Æ": 132,
      "Ç": 133,
      "È": 134,
      "É": 135,
      "Ê": 136,
      "Ë": 137,
      "Ì": 138,
      "Í": 139,
      "Î": 140,
      "Ï": 141,
      "Ð": 142,
      "Ñ": 143,
      "Ò": 144,
      "Ó": 145,
      "Ô": 146,
      "Õ": 147,
      "Ö": 148,
      "×": 149,
      "Ø": 150,
      "Ù": 151,
      "Ú": 152,
      "Û": 153,
      "Ü": 154,
      "Ý": 155,
      "Þ": 156,
      "ß": 157,
      "à": 158,
      "á": 159,
      "â": 160,
      "ã": 161,
      "ä": 162,
      "å": 163,
      "æ": 164,
      "ç": 165,
      "è": 166,
      "é": 167,
      "ê": 168,
      "ë": 169,
      "ì": 170,
      "í": 171,
      "î": 172,
      "ï": 173,
      "ð": 174,
      "ñ": 175,
      "ò": 176,
      "ó": 177,
      "ô": 178,
      "õ": 179,
      "ö": 180,
      "÷": 181,
      "ø": 182,
      "ù": 183,
      "ú": 184,
      "û": 185,
      "ü": 186,
      "ý": 187,
      "þ": 188,
      "ÿ": 189,
      "Ā": 190,
      "ā": 191,
      "Ă": 192,
      "ă": 193,
      "Ą": 194,
      "ą": 195,
      "Ć": 196,
      "ć": 197,
      "Ĉ": 198,
      "ĉ": 199,
      "Ċ": 200,
      "ċ": 201,
      "Č": 202,
      "č": 203,
      "Ď": 204,
      "ď": 205,
      "Đ": 206,
      "đ": 207,
      "Ē": 208,
      "ē": 209,
      "Ĕ": 210,
      "ĕ": 211,
      "Ė": 212,
      "ė": 213,
      "Ę": 214,
      "ę": 215,
      "Ě": 216,
      "ě": 217,
      "Ĝ": 218,
      "ĝ": 219,
      "Ğ": 220,
      "ğ": 221,
      "Ġ": 222,
      "ġ": 223,
      "Ģ": 224,
      "ģ": 225,
      "Ĥ": 226,
      "ĥ": 227,
      "Ħ": 228,
      "ħ": 229,
      "Ĩ": 230,
      "ĩ": 231,
      "Ī": 232,
      "ī": 233,
      "Ĭ": 234,
      "ĭ": 235,
      "Į": 236,
      "į": 237,
      "İ": 238,
      "ı": 239,
      "Ĳ": 240,
      "ĳ": 241,
      "Ĵ": 242,
      "ĵ": 243,
      "Ķ": 244,
      "ķ": 245,
      "ĸ": 246,
      "Ĺ": 247,
      "ĺ": 248,
      "Ļ": 249,
      "ļ": 250,
      "Ľ": 251,
      "ľ": 252,
      "Ŀ": 253,
      "ŀ": 254,
      "Ł": 255,
      "ł": 256,
      "Ń": 257,
      "in": 258,
      "te": 259,
      "Ġc": 260,
      "he": 261,
      "Ġa": 262,
      "se": 263,
      "on": 264,
      "Ġt": 265,
      "ic": 266,
      "Ġm": 267,
      "ar": 268,
      "or": 269,
      "ote": 270,
      "Ġin": 271,
      "an": 272,
      "Ġp": 273,
      "ac": 274,
      "Ġd": 275,
      "lin": 276,
      "at": 277,
      "Ġ1": 278,
      "lo": 279,
      "ra": 280,
      "Ġo": 281,
      "Ġw": 282,
      "ing": 283,
      "il": 284,
      "Ġn": 285,
      "ian": 286,
      "Ġmg": 287,
      "le": 288,
      "Ġthe": 289,
      "us": 290,
      "rase": 291,
      "re": 292,
      "pe": 293,
      "Ġda": 294,
      "Ġof": 295,
      "hing": 296,
      "aching": 297,
      "ily": 298,
      "Ġnote": 299,
      "Ġdaily": 300,
      "The": 301,
      "Ġte": 302,
      "pus": 303,
      "Ġcor": 304,
      "Ġcorpus": 305,
      "Ġap": 306,
      "ro": 307,
      "Clin": 308,
      "hrase": 309,
      "it": 310,
      "rote": 311,
      "ician": 312,
      "ars": 313,
      "Ġphrase": 314,
      "Ġwrote": 315,
      "pears": 316,
      "Ġteaching": 317,
      "Ġappears": 318,
      "Clinician": 319,
      "st": 320,
      "ine": 321,
      "ho": 322,
      "er": 323,
      "ion": 324,
      "li": 325,
      "ne": 326,
      "Ġv": 327,
      "um": 328,
      "ag": 329,
      "ĠÎ": 330,
      "Ġ10": 331,
      "Ġe": 332,
      "ia": 333,
      "Ġlo": 334,
      "en": 335,
      "lev": 336,
      "ed": 337,
      "Ġcon": 338,
      "gy": 339,
      "Ġf": 340,
      "ation": 341,
      "Ġ4": 342,
      "ĠI": 343,
      "mp": 344,
      "et": 345,
      "ve": 346,
      "Ġtw": 347,
      "Ġ7": 348,
      "anc": 349,
      "ta": 350,
      "Ġan": 351,
      "ĠC": 352,
      "¼g": 353,
      "ĠÎ¼g": 354,
      "om": 355,
      "tam": 356,
      "be": 357,
      "ice": 358,
      "Ġtwice": 359,
      "lif": 360,
      "mL": 361,
      "Ġse": 362,
      "dL": 363,
      "00": 364,
      "ot": 365,
      "zin": 366,
      "atin": 367,
      "lozin": 368,
      "aglif": 369,
      "Ġemp": 370,
      "agliflozin": 371,
      "Ġ75": 372,
      "Ġtro": 373,
      "itor": 374,
      "ĠN": 375,
      "Ġser": 376,
      "Ġempagliflozin": 377,
      "is": 378,
      "Ġb": 379,
      "Ġcre": 380,
      "atinine": 381,
      "Ġserum": 382,
      "Ġcreatinine": 383,
      "ted": 384,
      "ler": 385,
      "id": 386,
      "un": 387,
      "hi": 388,
      "ller": 389,
      "Ġaller": 390,
      "Ġallergy": 391,
      "arian": 392,
      "ir": 393,
      "line": 394,
      "ĠA": 395,
      "bitor": 396,
      "Ġhe": 397,
      "Ġinhi": 398,
      "Ġinhibitor": 399,
      "ast": 400,
      "BR": 401,
      "CA": 402,
      "Ġvarian": 403,
      "BRCA": 404,
      "Ġvariant": 405,
      "Ġ2": 406,
      "ĠH": 407,
      "atho": 408,
      "oc": 409,
      "so": 410,
      "Ġlow": 411,
      "ft": 412,
      "gh": 413,
      "Ġ8": 414,
      "mo": 415,
      "ste": 416,
      "Ġst": 417,
      "enic": 418,
      "Ġfor": 419,
      "dation": 420,
      "lidation": 421,
      "Ġlobe": 422,
      "Ġconso": 423,
      "Ġlower": 424,
      "Ġconsolidation": 425,
      "genic": 426,
      "ĠBRCA": 427,
      "Ġpatho": 428,
      "Ġpathogenic": 429,
      "ive": 430,
      "lac": 431,
      "Ġac": 432,
      "lactam": 433,
      "Ġand": 434,
      "yc": 435,
      "ĠS": 436,
      "ard": 437,
      "oth": 438,
      "ID": 439,
      "Ġle": 440,
      "red": 441,
      "Ġleft": 442,
      "ll": 443,
      "Ġdi": 444,
      "ĠE": 445,
      "Ġpne": 446,
      "reast": 447,
      "ĠIC": 448,
      "Ġbreast": 449,
      "Ġpneum": 450,
      "10": 451,
      "CM": 452,
      "cho": 453,
      "lcho": 454,
      "tion": 455,
      "ylcho": 456,
      "ĠÎ²": 457,
      "etylcho": 458,
      "lineste": 459,
      "Ġacetylcho": 460,
      "ĠICD": 461,
      "linesterase": 462,
      "Ġacetylcholinesterase": 463,
      "xine": 464,
      "yro": 465,
      "ĠT": 466,
      "Ġlev": 467,
      "Ġch": 468,
      "sea": 469,
      "othyro": 470,
      "Ġlevothyro": 471,
      "Ġlevothyroxine": 472,
      "min": 473,
      "Ġs": 474,
      "onia": 475,
      "lls": 476,
      "Ġpneumonia": 477,
      "ated": 478,
      "for": 479,
      "Ġmet": 480,
      "ĠCD": 481,
      "ycin": 482,
      "formin": 483,
      "Ġmetformin": 484,
      "11": 485,
      "19": 486,
      "NA": 487,
      "OV": 488,
      "RNA": 489,
      "cine": 490,
      "mun": 491,
      "ĠmRNA": 492,
      "accine": 493,
      "logy": 494,
      "ity": 495,
      "Ġvaccine": 496,
      "OVID": 497,
      "ER": 498,
      "gat": 499,
      "iv": 500,
      "Ġce": 501,
      "Ġcanc": 502,
      "Ġinf": 503,
      "Ġpg": 504,
      "negat": 505,
      "ĠHER": 506,
      "Ġdisea": 507,
      "Ġcancer": 508,
      "negative": 509,
      "Ġdisease": 510,
      "65": 511,
      "bin": 512,
      "glo": 513,
      "qu": 514,
      "Ġ18": 515,
      "ith": 516,
      "age": 517,
      "Ġcont": 518,
      "Ġhemo": 519,
      "Ġstage": 520,
      "globin": 521,
      "Ġhemoglobin": 522,
      "aÃ": 523,
      "¯ve": 524,
      "Ġcells": 525,
      "aÃ¯ve": 526,
      "ugh": 527,
      "Ġvanc": 528,
      "Ġ1000": 529,
      "omycin": 530,
      "Ġtrough": 531,
      "Ġvancomycin": 532,
      "kid": 533,
      "ron": 534,
      "Ġkid": 535,
      "ney": 536,
      "Ġchron": 537,
      "Ġkidney": 538,
      "Ġchronic": 539,
      "ired": 540,
      "yoc": 541,
      "Ġ5": 542,
      "Ġcom": 543,
      "Ġmyoc": 544,
      "arc": 545,
      "acqu": 546,
      "ial": 547,
      "ent": 548,
      "ĠCOVID": 549,
      "munity": 550,
      "Ġcommunity": 551,
      "Ġmyocard": 552,
      "acquired": 553,
      "BN": 554,
      "if": 555,
      "pon": 556,
      "pro": 557,
      "Ġis": 558,
      "ter": 559,
      "Ġwith": 560,
      "Ġelev": 561,
      "Ġtropon": 562,
      "ĠNT": 563,
      "BNP": 564,
      "proBNP": 565,
      "Ġelevated": 566,
      "Ġtroponin": 567,
      "ltam": 568,
      "seltam": 569,
      "Ġoseltam": 570,
      "ivir": 571,
      "Ġoseltamivir": 572,
      "200": 573,
      "Ġ3": 574,
      "Ġre": 575,
      "Ġ4200": 576,
      "elev": 577,
      "Ġon": 578,
      "ĠST": 579,
      "Ġinfarc": 580,
      "Ġmyocardial": 581,
      "elevation": 582,
      "Ġinfarction": 583,
      "Re": 584,
      "ol": 585,
      "tes": 586,
      "ĠNaÃ¯ve": 587,
      "Ġr": 588,
      "ab": 589,
      "ology": 590,
      "use": 591,
      "Ġnot": 592,
      "ck": 593,
      "lu": 594,
      "tic": 595,
      "ĠM": 596,
      "heck": 597,
      "Rec": 598,
      "Ġdia": 599,
      "betes": 600,
      "Ġdiabetes": 601,
      "od": 602,
      "art": 603,
      "me": 604,
      "su": 605,
      "up": 606,
      "uro": 607,
      "Ne": 608,
      "al": 609,
      "ied": 610,
      "ment": 611,
      "Ġ6": 612,
      "inu": 613,
      "low": 614,
      "Ġwe": 615,
      "Ġcontra": 616,
      "ss": 617,
      "Ġ12": 618,
      "ype": 619,
      "os": 620,
      "oid": 621,
      "void": 622,
      "Ġco": 623,
      "Lab": 624,
      "Te": 625,
      "fter": 626,
      "ks": 627,
      "ning": 628,
      "Ġafter": 629,
      "Ġmed": 630,
      "Ġday": 631,
      "how": 632,
      "Ġshow": 633,
      "Neuro": 634,
      "Ġcontrast": 635,
      "Labs": 636,
      "Teaching": 637,
      "clu": 638,
      "de": 639,
      "igh": 640,
      "lan": 641,
      "lus": 642,
      "mag": 643,
      "Ġuse": 644,
      "Ġat": 645,
      "Ġme": 646,
      "Ġinclu": 647,
      "Ġplus": 648,
      "Ġcontinu": 649,
      "ified": 650,
      "ollow": 651,
      "ight": 652,
      "maging": 653,
      "Ġinclude": 654,
      "ver": 655,
      "Ġ9": 656,
      "ĠG": 657,
      "Ġad": 658,
      "Ġtype": 659,
      "ication": 660,
      "Ġ11": 661,
      "illin": 662,
      "im": 663,
      "Ġg": 664,
      "Ġho": 665,
      "op": 666,
      "Ġl": 667,
      "Ġli": 668,
      "ance": 669,
      "Ġconf": 670,
      "Ġfa": 671,
      "ĠImaging": 672,
      "Ġhel": 673,
      "Ġ20": 674,
      "%.": 675,
      "As": 676,
      "Con": 677,
      "EF": 678,
      "Fr": 679,
      "Follow": 680,
      "GL": 681,
      "Hos": 682,
      "Plan": 683,
      "War": 684,
      "ay": 685,
      "cil": 686,
      "ene": 687,
      "eks": 688,
      "gic": 689,
      "har": 690,
      "iology": 691,
      "lt": 692,
      "pit": 693,
      "ĠRec": 694,
      "Ġcheck": 695,
      "sess": 696,
      "onitor": 697,
      "oncil": 698,
      "Ġtod": 699,
      "liner": 700,
      "holiner": 701,
      "edication": 702,
      "Ġfir": 703,
      "Ġtwo": 704,
      "Ġantic": 705,
      "ĠAvoid": 706,
      "ĠHFr": 707,
      "ĠSGL": 708,
      "Ġris": 709,
      "tics": 710,
      "ĠMonitor": 711,
      "ĠMedication": 712,
      "Reconcil": 713,
      "sult": 714,
      "Ġweeks": 715,
      "Ġmeds": 716,
      "Ġshowed": 717,
      "Ġused": 718,
      "Ġcontinue": 719,
      "ĠGene": 720,
      "Ġhome": 721,
      "Assess": 722,
      "Consult": 723,
      "Hospit": 724,
      "Warning": 725,
      "gics": 726,
      "ĠRecheck": 727,
      "Ġtoday": 728,
      "holinergics": 729,
      "Ġfirst": 730,
      "Ġanticholinergics": 731,
      "ĠHFrEF": 732,
      "ĠSGLT": 733,
      "ĠMedications": 734,
      "Reconcile": 735,
      "ĠGenetics": 736,
      "Assessment": 737,
      "Hospital": 738,
      "ur": 739,
      "Ġun": 740,
      "Ġ40": 741,
      "Ġrec": 742,
      "FR": 743,
      "GFR": 744,
      "hest": 745,
      "Ġover": 746,
      "SH": 747,
      "as": 748,
      "ocum": 749,
      "eed": 750,
      "mline": 751,
      "ri": 752,
      "xic": 753,
      "Ġamo": 754,
      "ory": 755,
      "Ġpre": 756,
      "Ġwor": 757,
      "ill": 758,
      "Ġneed": 759,
      "Ġtest": 760,
      "ermline": 761,
      "Ġsur": 762,
      "Ġcomp": 763,
      "Ġgermline": 764,
      "xicillin": 765,
      "Ġamoxicillin": 766,
      "Ġtesting": 767,
      "On": 768,
      "Phar": 769,
      "cology": 770,
      "jus": 771,
      "lar": 772,
      "mac": 773,
      "med": 774,
      "night": 775,
      "to": 776,
      "ts": 777,
      "za": 778,
      "Ġcar": 779,
      "selin": 780,
      "rap": 781,
      "Ġwas": 782,
      "its": 783,
      "enza": 784,
      "isc": 785,
      "unselin": 786,
      "irmed": 787,
      "ardiology": 788,
      "Ġinflu": 789,
      "old": 790,
      "Ġcounselin": 791,
      "Ġadjus": 792,
      "Ġconfirmed": 793,
      "Ġheld": 794,
      "Ġovernight": 795,
      "Oncology": 796,
      "Pharmac": 797,
      "Ġinfluenza": 798,
      "Ġcounseling": 799,
      "Pharmacy": 800,
      "Cardiology": 801,
      "NaÃ¯ve": 802,
      "ad": 803,
      "ge": 804,
      "tart": 805,
      "ure": 806,
      "ary": 807,
      "arted": 808,
      "Ġdo": 809,
      "Ġno": 810,
      "Ġwere": 811,
      "Ġrising": 812,
      "ain": 813,
      "por": 814,
      "Ġif": 815,
      "ten": 816,
      "Ġde": 817,
      "Ġtherap": 818,
      "ret": 819,
      "rov": 820,
      "Ġrepor": 821,
      "Ġtherapy": 822,
      "es": 823,
      "ti": 824,
      "ut": 825,
      "vast": 826,
      "xon": 827,
      "Ġ0": 828,
      "Ġchest": 829,
      "Ġtre": 830,
      "orvast": 831,
      "Ġnight": 832,
      "ĠeGFR": 833,
      "ĠTSH": 834,
      "Ġchart": 835,
      "Ġatorvast": 836,
      "Ġcomple": 837,
      "Ġatorvastatin": 838,
      "ble": 839,
      "ĠD": 840,
      "Ġavoid": 841,
      "Ġto": 842,
      "Ġdocum": 843,
      "rad": 844,
      "ilure": 845,
      "roble": 846,
      "itive": 847,
      "ented": 848,
      "Ġheart": 849,
      "ositive": 850,
      "Ġlis": 851,
      "Ġlist": 852,
      "Ġfailure": 853,
      "Ġdocumented": 854,
      "roblem": 855,
      "%,": 856,
      "42": 857,
      "COVID": 858,
      "Chest": 859,
      "Do": 860,
      "Emp": 861,
      "Hom": 862,
      "If": 863,
      "Im": 864,
      "Le": 865,
      "Un": 866,
      "ak": 867,
      "au": 868,
      "ause": 869,
      "ame": 870,
      "asu": 871,
      "bed": 872,
      "cing": 873,
      "cer": 874,
      "cri": 875,
      "ds": 876,
      "ear": 877,
      "epe": 878,
      "gn": 879,
      "ger": 880,
      "ium": 881,
      "imp": 882,
      "ign": 883,
      "kup": 884,
      "mu": 885,
      "mia": 886,
      "mory": 887,
      "nts": 888,
      "ood": 889,
      "pret": 890,
      "sis": 891,
      "sified": 892,
      "scri": 893,
      "th": 894,
      "the": 895,
      "tiv": 896,
      "ule": 897,
      "ution": 898,
      "ucing": 899,
      "varian": 900,
      "year": 901,
      "zil": 902,
      "Î²": 903,
      "ĠP": 904,
      "Ġid": 905,
      "Ġhi": 906,
      "Ġline": 907,
      "Ġim": 908,
      "Ġimp": 909,
      "inom": 910,
      "Ġcan": 911,
      "Ġcat": 912,
      "Ġcod": 913,
      "Ġclar": 914,
      "Ġcause": 915,
      "heet": 916,
      "Ġas": 917,
      "Ġare": 918,
      "sents": 919,
      "onst": 920,
      "onepe": 921,
      "onth": 922,
      "Ġtak": 923,
      "icine": 924,
      "icance": 925,
      "Ġmor": 926,
      "Ġmat": 927,
      "Ġmmo": 928,
      "Ġmonth": 929,
      "are": 930,
      "ords": 931,
      "Ġinter": 932,
      "Ġinto": 933,
      "Ġinten": 934,
      "Ġpain": 935,
      "action": 936,
      "acter": 937,
      "Ġdisc": 938,
      "Ġdonepe": 939,
      "atment": 940,
      "Ġ19": 941,
      "Ġothe": 942,
      "Ġovarian": 943,
      "ilm": 944,
      "Ġnau": 945,
      "letion": 946,
      "Ġthen": 947,
      "uss": 948,
      "itis": 949,
      "itution": 950,
      "story": 951,
      "started": 952,
      "ers": 953,
      "Ġexon": 954,
      "Ġloss": 955,
      "enoc": 956,
      "Ġfive": 957,
      "Ġfood": 958,
      "Ġfilm": 959,
      "veill": 960,
      "tain": 961,
      "ĠCT": 962,
      "Ġsever": 963,
      "Ġempir": 964,
      "Ġbillin": 965,
      "Ġbacter": 966,
      "lerance": 967,
      "ung": 968,
      "Ġstill": 969,
      "Ġactiv": 970,
      "ĠStart": 971,
      "reducing": 972,
      "Ġdiet": 973,
      "ĠEGFR": 974,
      "Ġsame": 975,
      "Ġsign": 976,
      "munology": 977,
      "arcinom": 978,
      "entified": 979,
      "Ġmyocarditis": 980,
      "ify": 981,
      "ificance": 982,
      "Ġreaction": 983,
      "Ġrestarted": 984,
      "Ġrule": 985,
      "Ġrare": 986,
      "Ġ62": 987,
      "ksheet": 988,
      "Ġmedicine": 989,
      "Ġdays": 990,
      "Ġshows": 991,
      "Neurology": 992,
      "Ġmeasu": 993,
      "Ġmemory": 994,
      "Ġadenoc": 995,
      "Ġlast": 996,
      "Ġlab": 997,
      "Ġlung": 998,
      "Ġconfuse": 999,
      "Ġhelp": 1000,
      "Ġrisk": 1001,
      "Ġuncer": 1002,
      "Ġreconst": 1003,
      "Ġrecords": 1004,
      "ocument": 1005,
      "riers": 1006,
      "Ġprescri": 1007,
      "Ġpresents": 1008,
      "Ġworkup": 1009,
      "Ġworksheet": 1010,
      "Ġneeds": 1011,
      "Ġsurger": 1012,
      "Ġsurveill": 1013,
      "Ġcarriers": 1014,
      "Ġadjust": 1015,
      "Ġdeletion": 1016,
      "roved": 1017,
      "Ġtreatment": 1018,
      "Ġcomplete": 1019,
      "ĠDocument": 1020,
      "Empagliflozin": 1021,
      "Home": 1022,
      "Immunology": 1023,
      "Left": 1024,
      "Units": 1025,
      "mune": 1026,
      "Ġidentified": 1027,
      "Ġhistory": 1028,
      "Ġimmune": 1029,
      "Ġimproved": 1030,
      "Ġcath": 1031,
      "Ġcodes": 1032,
      "Ġclarify": 1033,
      "Ġtake": 1034,
      "Ġmorning": 1035,
      "Ġmatter": 1036,
      "Ġmmol": 1037,
      "Ġinterpret": 1038,
      "Ġintolerance": 1039,
      "Ġintensified": 1040,
      "Ġdiscuss": 1041,
      "Ġdonepezil": 1042,
      "Ġother": 1043,
      "Ġnausea": 1044,
      "Ġseverity": 1045,
      "Ġempiric": 1046,
      "Ġbilling": 1047,
      "Ġbacterial": 1048,
      "Ġactivated": 1049,
      "Ġsignificance": 1050,
      "arcinoma": 1051,
      "Ġruled": 1052,
      "Ġmedicines": 1053,
      "Ġmeasured": 1054,
      "Ġadenocarcinoma": 1055,
      "Ġuncertain": 1056,
      "Ġreconstitution": 1057,
      "Ġprescribed": 1058,
      "Ġsurgery": 1059,
      "Ġsurveillance": 1060,
      "75": 1061,
      "AID": 1062,
      "FI": 1063,
      "HC": 1064,
      "KD": 1065,
      "Rad": 1066,
      "SAID": 1067,
      "av": 1068,
      "ax": 1069,
      "ate": 1070,
      "bal": 1071,
      "cl": 1072,
      "doc": 1073,
      "ff": 1074,
      "gine": 1075,
      "hro": 1076,
      "ix": 1077,
      "ient": 1078,
      "mid": 1079,
      "mycin": 1080,
      "mary": 1081,
      "ndoc": 1082,
      "ole": 1083,
      "phro": 1084,
      "ril": 1085,
      "rine": 1086,
      "rim": 1087,
      "top": 1088,
      "ulan": 1089,
      "vor": 1090,
      "zith": 1091,
      "zole": 1092,
      "Ġbe": 1093,
      "ĠFI": 1094,
      "inop": 1095,
      "Ġamp": 1096,
      "Ġazith": 1097,
      "semid": 1098,
      "Ġminu": 1099,
      "orax": 1100,
      "Ġinste": 1101,
      "Ġinsu": 1102,
      "ange": 1103,
      "antop": 1104,
      "Ġpantop": 1105,
      "atient": 1106,
      "loon": 1107,
      "razole": 1108,
      "usion": 1109,
      "Ġapix": 1110,
      "romycin": 1111,
      "erified": 1112,
      "Ġverified": 1113,
      "ummary": 1114,
      "Ġeff": 1115,
      "edti": 1116,
      "Ġfuro": 1117,
      "Ġfollow": 1118,
      "ĠIHC": 1119,
      "ĠCKD": 1120,
      "lified": 1121,
      "ĠNSAID": 1122,
      "Ġbrad": 1123,
      "Ġbedti": 1124,
      "Ġ25": 1125,
      "athology": 1126,
      "Ġ875": 1127,
      "ycard": 1128,
      "othorax": 1129,
      "Ġpneumothorax": 1130,
      "Ġsummary": 1131,
      "Ġ50": 1132,
      "Ġ52": 1133,
      "Ġ500": 1134,
      "Ġrange": 1135,
      "aban": 1136,
      "als": 1137,
      "Ġmeals": 1138,
      "Ġcontinued": 1139,
      "Ġincludes": 1140,
      "Ġglar": 1141,
      "Ġfalls": 1142,
      "Ġfavor": 1143,
      "harge": 1144,
      "Ġunits": 1145,
      "Ġcare": 1146,
      "ischarge": 1147,
      "Ġadjusted": 1148,
      "Ġdose": 1149,
      "Ġdoor": 1150,
      "Ġreports": 1151,
      "Ġlisinop": 1152,
      "Radiology": 1153,
      "avulan": 1154,
      "balloon": 1155,
      "clavulan": 1156,
      "ndocrine": 1157,
      "phrology": 1158,
      "rimary": 1159,
      "Ġbelow": 1160,
      "ĠFISH": 1161,
      "Ġamplified": 1162,
      "Ġazithromycin": 1163,
      "semide": 1164,
      "Ġminutes": 1165,
      "Ġinstead": 1166,
      "Ġinsulin": 1167,
      "Ġpantoprazole": 1168,
      "Ġapixaban": 1169,
      "Ġeffusion": 1170,
      "Ġfurosemide": 1171,
      "ĠNSAIDs": 1172,
      "Ġbradycard": 1173,
      "Ġbedtime": 1174,
      "Ġglargine": 1175,
      "Ġfavors": 1176,
      "Ġlisinopril": 1177,
      "clavulanate": 1178,
      "Ġbradycardia": 1179,
      "12": 1180,
      "18": 1181,
      "50": 1182,
      "AS": 1183,
      "CU": 1184,
      "Discharge": 1185,
      "Endocrine": 1186,
      "Hold": 1187,
      "Imaging": 1188,
      "ICU": 1189,
      "KR": 1190,
      "Problem": 1191,
      "Patient": 1192,
      "Pathology": 1193,
      "Primary": 1194,
      "Start": 1195,
      "cified": 1196,
      "dication": 1197,
      "emia": 1198,
      "gl": 1199,
      "hype": 1200,
      "iz": 1201,
      "iop": 1202,
      "lz": 1203,
      "pt": 1204,
      "positive": 1205,
      "rgl": 1206,
      "sy": 1207,
      "spe": 1208,
      "ĠKR": 1209,
      "Ġhype": 1210,
      "indication": 1211,
      "heim": 1212,
      "Ġtom": 1213,
      "Ġmut": 1214,
      "orro": 1215,
      "atus": 1216,
      "Ġopt": 1217,
      "Ġwit": 1218,
      "peat": 1219,
      "itus": 1220,
      "hout": 1221,
      "Ġvol": 1222,
      "ume": 1223,
      "Ġbiop": 1224,
      "ĠAlz": 1225,
      "Ġstop": 1226,
      "Ġstarted": 1227,
      "Ġstatus": 1228,
      "ycemia": 1229,
      "llitus": 1230,
      "quid": 1231,
      "Repeat": 1232,
      "artment": 1233,
      "Nephrology": 1234,
      "Ġcontraindication": 1235,
      "Ġmellitus": 1236,
      "imiz": 1237,
      "Ġliquid": 1238,
      "Ġunspe": 1239,
      "Ġcompartment": 1240,
      "Ġreported": 1241,
      "rglycemia": 1242,
      "ĠKRAS": 1243,
      "Ġhyperglycemia": 1244,
      "heimer": 1245,
      "Ġtomorro": 1246,
      "Ġmutation": 1247,
      "Ġoptimiz": 1248,
      "Ġwithout": 1249,
      "Ġvolume": 1250,
      "Ġbiopsy": 1251,
      "ĠAlzheimer": 1252,
      "Ġunspecified": 1253,
      "Ġtomorrow": 1254,
      "Ġoptimized": 1255,
      "38": 1256,
      "73": 1257,
      "DL": 1258,
      "IU": 1259,
      "IV": 1260,
      "LDL": 1261,
      "dium": 1262,
      "ira": 1263,
      "ly": 1264,
      "lta": 1265,
      "main": 1266,
      "ove": 1267,
      "ota": 1268,
      "vanc": 1269,
      "Ġso": 1270,
      "ĠLDL": 1271,
      "Ġcho": 1272,
      "Ġtit": 1273,
      "ĠmL": 1274,
      "ĠmIU": 1275,
      "Ġpositive": 1276,
      "Ġpota": 1277,
      "Ġ142": 1278,
      "Ġ138": 1279,
      "rated": 1280,
      "Ġng": 1281,
      "leste": 1282,
      "rol": 1283,
      "Ġconsis": 1284,
      "Ġanti": 1285,
      "Ġ28": 1286,
      "ĠHIV": 1287,
      "Ġdiure": 1288,
      "Ġ1800": 1289,
      "Ġremain": 1290,
      "ssium": 1291,
      "Ġadvanc": 1292,
      "Ġhour": 1293,
      "Ġrecove": 1294,
      "tent": 1295,
      "Ġdelta": 1296,
      "retrov": 1297,
      "Ġnightly": 1298,
      "iral": 1299,
      "Ġsodium": 1300,
      "Ġcholeste": 1301,
      "Ġtitrated": 1302,
      "Ġpotassium": 1303,
      "Ġconsistent": 1304,
      "Ġantiretrov": 1305,
      "Ġdiuresis": 1306,
      "Ġadvanced": 1307,
      "Ġhours": 1308,
      "Ġrecovered": 1309,
      "Ġcholesterol": 1310,
      "Ġantiretroviral": 1311,
      "21": 1312,
      "911": 1313,
      "all": 1314,
      "dho": 1315,
      "gan": 1316,
      "grap": 1317,
      "his": 1318,
      "io": 1319,
      "ior": 1320,
      "ies": 1321,
      "oo": 1322,
      "ria": 1323,
      "sh": 1324,
      "ĠJ": 1325,
      "Ġor": 1326,
      "Ġra": 1327,
      "Ġrad": 1328,
      "Ġane": 1329,
      "Ġthis": 1330,
      "Ġpenic": 1331,
      "Ġproblem": 1332,
      "Ġwall": 1333,
      "ildho": 1334,
      "Ġanter": 1335,
      "Ġseas": 1336,
      "Ġseries": 1337,
      "ism": 1338,
      "Ġboo": 1339,
      "ftria": 1340,
      "ster": 1341,
      "ĠER": 1342,
      "Ġchildho": 1343,
      "iven": 1344,
      "Ġceftria": 1345,
      "Ġright": 1346,
      "Ġgiven": 1347,
      "Ġ2021": 1348,
      "xone": 1349,
      "Ġtreated": 1350,
      "Ġcompleted": 1351,
      "Ġlisted": 1352,
      "ĠPR": 1353,
      "ganism": 1354,
      "graph": 1355,
      "iograph": 1356,
      "Ġorganism": 1357,
      "Ġrash": 1358,
      "Ġradiograph": 1359,
      "Ġanemia": 1360,
      "Ġpenicillin": 1361,
      "Ġanterior": 1362,
      "Ġseason": 1363,
      "Ġbooster": 1364,
      "Ġchildhood": 1365,
      "Ġceftriaxone": 1366
    },
    "merges": [
      [
        "i",
        "n"
      ],
      [
        "t",
        "e"
      ],
      [
        "Ġ",
        "c"
      ],
      [
        "h",
        "e"
      ],
      [
        "Ġ",
        "a"
      ],
      [
        "s",
        "e"
      ],
      [
        "o",
        "n"
      ],
      [
        "Ġ",
        "t"
      ],
      [
        "i",
        "c"
      ],
      [
        "Ġ",
        "m"
      ],
      [
        "a",
        "r"
      ],
      [
        "o",
        "r"
      ],
      [
        "o",
        "te"
      ],
      [
        "Ġ",
        "in"
      ],
      [
        "a",
        "n"
      ],
      [
        "Ġ",
        "p"
      ],
      [
        "a",
        "c"
      ],
      [
        "Ġ",
        "d"
      ],
      [
        "l",
        "in"
      ],
      [
        "a",
        "t"
      ],
      [
        "Ġ",
        "1"
      ],
      [
        "l",
        "o"
      ],
      [
        "r",
        "a"
      ],
      [
        "Ġ",
        "o"
      ],
      [
        "Ġ",
        "w"
      ],
      [
        "in",
        "g"
      ],
      [
        "i",
        "l"
      ],
      [
        "Ġ",
        "n"
      ],
      [
        "i",
        "an"
      ],
      [
        "Ġm",
        "g"
      ],
      [
        "l",
        "e"
      ],
      [
        "Ġt",
        "he"
      ],
      [
        "u",
        "s"
      ],
      [
        "ra",
        "se"
      ],
      [
        "r",
        "e"
      ],
      [
        "p",
        "e"
      ],
      [
        "Ġd",
        "a"
      ],
      [
        "Ġo",
        "f"
      ],
      [
        "h",
        "ing"
      ],
      [
        "ac",
        "hing"
      ],
      [
        "il",
        "y"
      ],
      [
        "Ġn",
        "ote"
      ],
      [
        "Ġda",
        "ily"
      ],
      [
        "T",
        "he"
      ],
      [
        "Ġ",
        "te"
      ],
      [
        "p",
        "us"
      ],
      [
        "Ġc",
        "or"
      ],
      [
        "Ġcor",
        "pus"
      ],
      [
        "Ġa",
        "p"
      ],
      [
        "r",
        "o"
      ],
      [
        "C",
        "lin"
      ],
      [
        "h",
        "rase"
      ],
      [
        "i",
        "t"
      ],
      [
        "r",
        "ote"
      ],
      [
        "ic",
        "ian"
      ],
      [
        "ar",
        "s"
      ],
      [
        "Ġp",
        "hrase"
      ],
      [
        "Ġw",
        "rote"
      ],
      [
        "pe",
        "ars"
      ],
      [
        "Ġte",
        "aching"
      ],
      [
        "Ġap",
        "pears"
      ],
      [
        "Clin",
        "ician"
      ],
      [
        "s",
        "t"
      ],
      [
        "in",
        "e"
      ],
      [
        "h",
        "o"
      ],
      [
        "e",
        "r"
      ],
      [
        "i",
        "on"
      ],
      [
        "l",
        "i"
      ],
      [
        "n",
        "e"
      ],
      [
        "Ġ",
        "v"
      ],
      [
        "u",
        "m"
      ],
      [
        "a",
        "g"
      ],
      [
        "Ġ",
        "Î"
      ],
      [
        "Ġ1",
        "0"
      ],
      [
        "Ġ",
        "e"
      ],
      [
        "i",
        "a"
      ],
      [
        "Ġ",
        "lo"
      ],
      [
        "e",
        "n"
      ],
      [
        "le",
        "v"
      ],
      [
        "e",
        "d"
      ],
      [
        "Ġc",
        "on"
      ],
      [
        "g",
        "y"
      ],
      [
        "Ġ",
        "f"
      ],
      [
        "at",
        "ion"
      ],
      [
        "Ġ",
        "4"
      ],
      [
        "Ġ",
        "I"
      ],
      [
        "m",
        "p"
      ],
      [
        "e",
        "t"
      ],
      [
        "v",
        "e"
      ],
      [
        "Ġt",
        "w"
      ],
      [
        "Ġ",
        "7"
      ],
      [
        "an",
        "c"
      ],
      [
        "t",
        "a"
      ],
      [
        "Ġa",
        "n"
      ],
      [
        "Ġ",
        "C"
      ],
      [
        "¼",
        "g"
      ],
      [
        "ĠÎ",
        "¼g"
      ],
      [
        "o",
        "m"
      ],
      [
        "ta",
        "m"
      ],
      [
        "b",
        "e"
      ],
      [
        "ic",
        "e"
      ],
      [
        "Ġtw",
        "ice"
      ],
      [
        "li",
        "f"
      ],
      [
        "m",
        "L"
      ],
      [
        "Ġ",
        "se"
      ],
      [
        "d",
        "L"
      ],
      [
        "0",
        "0"
      ],
      [
        "o",
        "t"
      ],
      [
        "z",
        "in"
      ],
      [
        "at",
        "in"
      ],
      [
        "lo",
        "zin"
      ],
      [
        "ag",
        "lif"
      ],
      [
        "Ġe",
        "mp"
      ],
      [
        "aglif",
        "lozin"
      ],
      [
        "Ġ7",
        "5"
      ],
      [
        "Ġt",
        "ro"
      ],
      [
        "it",
        "or"
      ],
      [
        "Ġ",
        "N"
      ],
      [
        "Ġse",
        "r"
      ],
      [
        "Ġemp",
        "agliflozin"
      ],
      [
        "i",
        "s"
      ],
      [
        "Ġ",
        "b"
      ],
      [
        "Ġc",
        "re"
      ],
      [
        "atin",
        "ine"
      ],
      [
        "Ġser",
        "um"
      ],
      [
        "Ġcre",
        "atinine"
      ],
      [
        "te",
        "d"
      ],
      [
        "le",
        "r"
      ],
      [
        "i",
        "d"
      ],
      [
        "u",
        "n"
      ],
      [
        "h",
        "i"
      ],
      [
        "l",
        "ler"
      ],
      [
        "Ġa",
        "ller"
      ],
      [
        "Ġaller",
        "gy"
      ],
      [
        "ar",
        "ian"
      ],
      [
        "i",
        "r"
      ],
      [
        "lin",
        "e"
      ],
      [
        "Ġ",
        "A"
      ],
      [
        "b",
        "itor"
      ],
      [
        "Ġ",
        "he"
      ],
      [
        "Ġin",
        "hi"
      ],
      [
        "Ġinhi",
        "bitor"
      ],
      [
        "a",
        "st"
      ],
      [
        "B",
        "R"
      ],
      [
        "C",
        "A"
      ],
      [
        "Ġv",
        "arian"
      ],
      [
        "BR",
        "CA"
      ],
      [
        "Ġvarian",
        "t"
      ],
      [
        "Ġ",
        "2"
      ],
      [
        "Ġ",
        "H"
      ],
      [
        "at",
        "ho"
      ],
      [
        "o",
        "c"
      ],
      [
        "s",
        "o"
      ],
      [
        "Ġlo",
        "w"
      ],
      [
        "f",
        "t"
      ],
      [
        "g",
        "h"
      ],
      [
        "Ġ",
        "8"
      ],
      [
        "m",
        "o"
      ],
      [
        "s",
        "te"
      ],
      [
        "Ġ",
        "st"
      ],
      [
        "en",
        "ic"
      ],
      [
        "Ġf",
        "or"
      ],
      [
        "d",
        "ation"
      ],
      [
        "li",
        "dation"
      ],
      [
        "Ġlo",
        "be"
      ],
      [
        "Ġcon",
        "so"
      ],
      [
        "Ġlow",
        "er"
      ],
      [
        "Ġconso",
        "lidation"
      ],
      [
        "g",
        "enic"
      ],
      [
        "Ġ",
        "BRCA"
      ],
      [
        "Ġp",
        "atho"
      ],
      [
        "Ġpatho",
        "genic"
      ],
      [
        "i",
        "ve"
      ],
      [
        "l",
        "ac"
      ],
      [
        "Ġa",
        "c"
      ],
      [
        "lac",
        "tam"
      ],
      [
        "Ġan",
        "d"
      ],
      [
        "y",
        "c"
      ],
      [
        "Ġ",
        "S"
      ],
      [
        "ar",
        "d"
      ],
      [
        "ot",
        "h"
      ],
      [
        "I",
        "D"
      ],
      [
        "Ġ",
        "le"
      ],
      [
        "re",
        "d"
      ],
      [
        "Ġle",
        "ft"
      ],
      [
        "l",
        "l"
      ],
      [
        "Ġd",
        "i"
      ],
      [
        "Ġ",
        "E"
      ],
      [
        "Ġp",
        "ne"
      ],
      [
        "re",
        "ast"
      ],
      [
        "ĠI",
        "C"
      ],
      [
        "Ġb",
        "reast"
      ],
      [
        "Ġpne",
        "um"
      ],
      [
        "1",
        "0"
      ],
      [
        "C",
        "M"
      ],
      [
        "c",
        "ho"
      ],
      [
        "l",
        "cho"
      ],
      [
        "t",
        "ion"
      ],
      [
        "y",
        "lcho"
      ],
      [
        "ĠÎ",
        "²"
      ],
      [
        "et",
        "ylcho"
      ],
      [
        "line",
        "ste"
      ],
      [
        "Ġac",
        "etylcho"
      ],
      [
        "ĠIC",
        "D"
      ],
      [
        "lineste",
        "rase"
      ],
      [
        "Ġacetylcho",
        "linesterase"
      ],
      [
        "x",
        "ine"
      ],
      [
        "y",
        "ro"
      ],
      [
        "Ġ",
        "T"
      ],
      [
        "Ġ",
        "lev"
      ],
      [
        "Ġc",
        "h"
      ],
      [
        "se",
        "a"
      ],
      [
        "oth",
        "yro"
      ],
      [
        "Ġlev",
        "othyro"
      ],
      [
        "Ġlevothyro",
        "xine"
      ],
      [
        "m",
        "in"
      ],
      [
        "Ġ",
        "s"
      ],
      [
        "on",
        "ia"
      ],
      [
        "ll",
        "s"
      ],
      [
        "Ġpneum",
        "onia"
      ],
      [
        "a",
        "ted"
      ],
      [
        "f",
        "or"
      ],
      [
        "Ġm",
        "et"
      ],
      [
        "ĠC",
        "D"
      ],
      [
        "yc",
        "in"
      ],
      [
        "for",
        "min"
      ],
      [
        "Ġmet",
        "formin"
      ],
      [
        "1",
        "1"
      ],
      [
        "1",
        "9"
      ],
      [
        "N",
        "A"
      ],
      [
        "O",
        "V"
      ],
      [
        "R",
        "NA"
      ],
      [
        "c",
        "ine"
      ],
      [
        "m",
        "un"
      ],
      [
        "Ġm",
        "RNA"
      ],
      [
        "ac",
        "cine"
      ],
      [
        "lo",
        "gy"
      ],
      [
        "it",
        "y"
      ],
      [
        "Ġv",
        "accine"
      ],
      [
        "OV",
        "ID"
      ],
      [
        "E",
        "R"
      ],
      [
        "g",
        "at"
      ],
      [
        "i",
        "v"
      ],
      [
        "Ġc",
        "e"
      ],
      [
        "Ġc",
        "anc"
      ],
      [
        "Ġin",
        "f"
      ],
      [
        "Ġp",
        "g"
      ],
      [
        "ne",
        "gat"
      ],
      [
        "ĠH",
        "ER"
      ],
      [
        "Ġdi",
        "sea"
      ],
      [
        "Ġcanc",
        "er"
      ],
      [
        "negat",
        "ive"
      ],
      [
        "Ġdisea",
        "se"
      ],
      [
        "6",
        "5"
      ],
      [
        "b",
        "in"
      ],
      [
        "g",
        "lo"
      ],
      [
        "q",
        "u"
      ],
      [
        "Ġ1",
        "8"
      ],
      [
        "it",
        "h"
      ],
      [
        "ag",
        "e"
      ],
      [
        "Ġcon",
        "t"
      ],
      [
        "Ġhe",
        "mo"
      ],
      [
        "Ġst",
        "age"
      ],
      [
        "glo",
        "bin"
      ],
      [
        "Ġhemo",
        "globin"
      ],
      [
        "a",
        "Ã"
      ],
      [
        "¯",
        "ve"
      ],
      [
        "Ġce",
        "lls"
      ],
      [
        "aÃ",
        "¯ve"
      ],
      [
        "u",
        "gh"
      ],
      [
        "Ġv",
        "anc"
      ],
      [
        "Ġ10",
        "00"
      ],
      [
        "om",
        "ycin"
      ],
      [
        "Ġtro",
        "ugh"
      ],
      [
        "Ġvanc",
        "omycin"
      ],
      [
        "k",
        "id"
      ],
      [
        "r",
        "on"
      ],
      [
        "Ġ",
        "kid"
      ],
      [
        "ne",
        "y"
      ],
      [
        "Ġch",
        "ron"
      ],
      [
        "Ġkid",
        "ney"
      ],
      [
        "Ġchron",
        "ic"
      ],
      [
        "i",
        "red"
      ],
      [
        "y",
        "oc"
      ],
      [
        "Ġ",
        "5"
      ],
      [
        "Ġc",
        "om"
      ],
      [
        "Ġm",
        "yoc"
      ],
      [
        "ar",
        "c"
      ],
      [
        "ac",
        "qu"
      ],
      [
        "ia",
        "l"
      ],
      [
        "en",
        "t"
      ],
      [
        "ĠC",
        "OVID"
      ],
      [
        "mun",
        "ity"
      ],
      [
        "Ġcom",
        "munity"
      ],
      [
        "Ġmyoc",
        "ard"
      ],
      [
        "acqu",
        "ired"
      ],
      [
        "B",
        "N"
      ],
      [
        "i",
        "f"
      ],
      [
        "p",
        "on"
      ],
      [
        "p",
        "ro"
      ],
      [
        "Ġ",
        "is"
      ],
      [
        "te",
        "r"
      ],
      [
        "Ġw",
        "ith"
      ],
      [
        "Ġe",
        "lev"
      ],
      [
        "Ġtro",
        "pon"
      ],
      [
        "ĠN",
        "T"
      ],
      [
        "BN",
        "P"
      ],
      [
        "pro",
        "BNP"
      ],
      [
        "Ġelev",
        "ated"
      ],
      [
        "Ġtropon",
        "in"
      ],
      [
        "l",
        "tam"
      ],
      [
        "se",
        "ltam"
      ],
      [
        "Ġo",
        "seltam"
      ],
      [
        "iv",
        "ir"
      ],
      [
        "Ġoseltam",
        "ivir"
      ],
      [
        "2",
        "00"
      ],
      [
        "Ġ",
        "3"
      ],
      [
        "Ġ",
        "re"
      ],
      [
        "Ġ4",
        "200"
      ],
      [
        "e",
        "lev"
      ],
      [
        "Ġ",
        "on"
      ],
      [
        "ĠS",
        "T"
      ],
      [
        "Ġinf",
        "arc"
      ],
      [
        "Ġmyocard",
        "ial"
      ],
      [
        "elev",
        "ation"
      ],
      [
        "Ġinfarc",
        "tion"
      ],
      [
        "R",
        "e"
      ],
      [
        "o",
        "l"
      ],
      [
        "te",
        "s"
      ],
      [
        "ĠN",
        "aÃ¯ve"
      ],
      [
        "Ġ",
        "r"
      ],
      [
        "a",
        "b"
      ],
      [
        "o",
        "logy"
      ],
      [
        "u",
        "se"
      ],
      [
        "Ġn",
        "ot"
      ],
      [
        "c",
        "k"
      ],
      [
        "l",
        "u"
      ],
      [
        "t",
        "ic"
      ],
      [
        "Ġ",
        "M"
      ],
      [
        "he",
        "ck"
      ],
      [
        "Re",
        "c"
      ],
      [
        "Ġd",
        "ia"
      ],
      [
        "be",
        "tes"
      ],
      [
        "Ġdia",
        "betes"
      ],
      [
        "o",
        "d"
      ],
      [
        "ar",
        "t"
      ],
      [
        "m",
        "e"
      ],
      [
        "s",
        "u"
      ],
      [
        "u",
        "p"
      ],
      [
        "u",
        "ro"
      ],
      [
        "N",
        "e"
      ],
      [
        "a",
        "l"
      ],
      [
        "i",
        "ed"
      ],
      [
        "m",
        "ent"
      ],
      [
        "Ġ",
        "6"
      ],
      [
        "in",
        "u"
      ],
      [
        "lo",
        "w"
      ],
      [
        "Ġw",
        "e"
      ],
      [
        "Ġcont",
        "ra"
      ],
      [
        "s",
        "s"
      ],
      [
        "Ġ1",
        "2"
      ],
      [
        "y",
        "pe"
      ],
      [
        "o",
        "s"
      ],
      [
        "o",
        "id"
      ],
      [
        "v",
        "oid"
      ],
      [
        "Ġc",
        "o"
      ],
      [
        "L",
        "ab"
      ],
      [
        "T",
        "e"
      ],
      [
        "f",
        "ter"
      ],
      [
        "k",
        "s"
      ],
      [
        "n",
        "ing"
      ],
      [
        "Ġa",
        "fter"
      ],
      [
        "Ġm",
        "ed"
      ],
      [
        "Ġda",
        "y"
      ],
      [
        "ho",
        "w"
      ],
      [
        "Ġs",
        "how"
      ],
      [
        "Ne",
        "uro"
      ],
      [
        "Ġcontra",
        "st"
      ],
      [
        "Lab",
        "s"
      ],
      [
        "Te",
        "aching"
      ],
      [
        "c",
        "lu"
      ],
      [
        "d",
        "e"
      ],
      [
        "i",
        "gh"
      ],
      [
        "l",
        "an"
      ],
      [
        "l",
        "us"
      ],
      [
        "m",
        "ag"
      ],
      [
        "Ġ",
        "use"
      ],
      [
        "Ġa",
        "t"
      ],
      [
        "Ġm",
        "e"
      ],
      [
        "Ġin",
        "clu"
      ],
      [
        "Ġp",
        "lus"
      ],
      [
        "Ġcont",
        "inu"
      ],
      [
        "if",
        "ied"
      ],
      [
        "ol",
        "low"
      ],
      [
        "igh",
        "t"
      ],
      [
        "mag",
        "ing"
      ],
      [
        "Ġinclu",
        "de"
      ],
      [
        "v",
        "er"
      ],
      [
        "Ġ",
        "9"
      ],
      [
        "Ġ",
        "G"
      ],
      [
        "Ġa",
        "d"
      ],
      [
        "Ġt",
        "ype"
      ],
      [
        "ic",
        "ation"
      ],
      [
        "Ġ1",
        "1"
      ],
      [
        "il",
        "lin"
      ],
      [
        "i",
        "m"
      ],
      [
        "Ġ",
        "g"
      ],
      [
        "Ġ",
        "ho"
      ],
      [
        "o",
        "p"
      ],
      [
        "Ġ",
        "l"
      ],
      [
        "Ġ",
        "li"
      ],
      [
        "anc",
        "e"
      ],
      [
        "Ġcon",
        "f"
      ],
      [
        "Ġf",
        "a"
      ],
      [
        "ĠI",
        "maging"
      ],
      [
        "Ġhe",
        "l"
      ],
      [
        "Ġ2",
        "0"
      ],
      [
        "%",
        "."
      ],
      [
        "A",
        "s"
      ],
      [
        "C",
        "on"
      ],
      [
        "E",
        "F"
      ],
      [
        "F",
        "r"
      ],
      [
        "F",
        "ollow"
      ],
      [
        "G",
        "L"
      ],
      [
        "H",
        "os"
      ],
      [
        "P",
        "lan"
      ],
      [
        "W",
        "ar"
      ],
      [
        "a",
        "y"
      ],
      [
        "c",
        "il"
      ],
      [
        "e",
        "ne"
      ],
      [
        "e",
        "ks"
      ],
      [
        "g",
        "ic"
      ],
      [
        "h",
        "ar"
      ],
      [
        "i",
        "ology"
      ],
      [
        "l",
        "t"
      ],
      [
        "p",
        "it"
      ],
      [
        "Ġ",
        "Rec"
      ],
      [
        "Ġc",
        "heck"
      ],
      [
        "se",
        "ss"
      ],
      [
        "on",
        "itor"
      ],
      [
        "on",
        "cil"
      ],
      [
        "Ġt",
        "od"
      ],
      [
        "lin",
        "er"
      ],
      [
        "ho",
        "liner"
      ],
      [
        "ed",
        "ication"
      ],
      [
        "Ġf",
        "ir"
      ],
      [
        "Ġtw",
        "o"
      ],
      [
        "Ġan",
        "tic"
      ],
      [
        "ĠA",
        "void"
      ],
      [
        "ĠH",
        "Fr"
      ],
      [
        "ĠS",
        "GL"
      ],
      [
        "Ġr",
        "is"
      ],
      [
        "tic",
        "s"
      ],
      [
        "ĠM",
        "onitor"
      ],
      [
        "ĠM",
        "edication"
      ],
      [
        "Rec",
        "oncil"
      ],
      [
        "su",
        "lt"
      ],
      [
        "Ġwe",
        "eks"
      ],
      [
        "Ġmed",
        "s"
      ],
      [
        "Ġshow",
        "ed"
      ],
      [
        "Ġuse",
        "d"
      ],
      [
        "Ġcontinu",
        "e"
      ],
      [
        "ĠG",
        "ene"
      ],
      [
        "Ġho",
        "me"
      ],
      [
        "As",
        "sess"
      ],
      [
        "Con",
        "sult"
      ],
      [
        "Hos",
        "pit"
      ],
      [
        "War",
        "ning"
      ],
      [
        "gic",
        "s"
      ],
      [
        "ĠRec",
        "heck"
      ],
      [
        "Ġtod",
        "ay"
      ],
      [
        "holiner",
        "gics"
      ],
      [
        "Ġfir",
        "st"
      ],
      [
        "Ġantic",
        "holinergics"
      ],
      [
        "ĠHFr",
        "EF"
      ],
      [
        "ĠSGL",
        "T"
      ],
      [
        "ĠMedication",
        "s"
      ],
      [
        "Reconcil",
        "e"
      ],
      [
        "ĠGene",
        "tics"
      ],
      [
        "Assess",
        "ment"
      ],
      [
        "Hospit",
        "al"
      ],
      [
        "u",
        "r"
      ],
      [
        "Ġ",
        "un"
      ],
      [
        "Ġ4",
        "0"
      ],
      [
        "Ġre",
        "c"
      ],
      [
        "F",
        "R"
      ],
      [
        "G",
        "FR"
      ],
      [
        "he",
        "st"
      ],
      [
        "Ġo",
        "ver"
      ],
      [
        "S",
        "H"
      ],
      [
        "a",
        "s"
      ],
      [
        "oc",
        "um"
      ],
      [
        "e",
        "ed"
      ],
      [
        "m",
        "line"
      ],
      [
        "r",
        "i"
      ],
      [
        "x",
        "ic"
      ],
      [
        "Ġa",
        "mo"
      ],
      [
        "or",
        "y"
      ],
      [
        "Ġp",
        "re"
      ],
      [
        "Ġw",
        "or"
      ],
      [
        "il",
        "l"
      ],
      [
        "Ġn",
        "eed"
      ],
      [
        "Ġte",
        "st"
      ],
      [
        "er",
        "mline"
      ],
      [
        "Ġs",
        "ur"
      ],
      [
        "Ġco",
        "mp"
      ],
      [
        "Ġg",
        "ermline"
      ],
      [
        "xic",
        "illin"
      ],
      [
        "Ġamo",
        "xicillin"
      ],
      [
        "Ġtest",
        "ing"
      ],
      [
        "O",
        "n"
      ],
      [
        "P",
        "har"
      ],
      [
        "c",
        "ology"
      ],
      [
        "j",
        "us"
      ],
      [
        "l",
        "ar"
      ],
      [
        "m",
        "ac"
      ],
      [
        "m",
        "ed"
      ],
      [
        "n",
        "ight"
      ],
      [
        "t",
        "o"
      ],
      [
        "t",
        "s"
      ],
      [
        "z",
        "a"
      ],
      [
        "Ġc",
        "ar"
      ],
      [
        "se",
        "lin"
      ],
      [
        "ra",
        "p"
      ],
      [
        "Ġw",
        "as"
      ],
      [
        "it",
        "s"
      ],
      [
        "en",
        "za"
      ],
      [
        "is",
        "c"
      ],
      [
        "un",
        "selin"
      ],
      [
        "ir",
        "med"
      ],
      [
        "ard",
        "iology"
      ],
      [
        "Ġinf",
        "lu"
      ],
      [
        "ol",
        "d"
      ],
      [
        "Ġco",
        "unselin"
      ],
      [
        "Ġad",
        "jus"
      ],
      [
        "Ġconf",
        "irmed"
      ],
      [
        "Ġhel",
        "d"
      ],
      [
        "Ġover",
        "night"
      ],
      [
        "On",
        "cology"
      ],
      [
        "Phar",
        "mac"
      ],
      [
        "Ġinflu",
        "enza"
      ],
      [
        "Ġcounselin",
        "g"
      ],
      [
        "Pharmac",
        "y"
      ],
      [
        "C",
        "ardiology"
      ],
      [
        "N",
        "aÃ¯ve"
      ],
      [
        "a",
        "d"
      ],
      [
        "g",
        "e"
      ],
      [
        "t",
        "art"
      ],
      [
        "u",
        "re"
      ],
      [
        "ar",
        "y"
      ],
      [
        "ar",
        "ted"
      ],
      [
        "Ġd",
        "o"
      ],
      [
        "Ġn",
        "o"
      ],
      [
        "Ġwe",
        "re"
      ],
      [
        "Ġris",
        "ing"
      ],
      [
        "a",
        "in"
      ],
      [
        "p",
        "or"
      ],
      [
        "Ġ",
        "if"
      ],
      [
        "te",
        "n"
      ],
      [
        "Ġd",
        "e"
      ],
      [
        "Ġthe",
        "rap"
      ],
      [
        "re",
        "t"
      ],
      [
        "ro",
        "v"
      ],
      [
        "Ġre",
        "por"
      ],
      [
        "Ġtherap",
        "y"
      ],
      [
        "e",
        "s"
      ],
      [
        "t",
        "i"
      ],
      [
        "u",
        "t"
      ],
      [
        "v",
        "ast"
      ],
      [
        "x",
        "on"
      ],
      [
        "Ġ",
        "0"
      ],
      [
        "Ġc",
        "hest"
      ],
      [
        "Ġt",
        "re"
      ],
      [
        "or",
        "vast"
      ],
      [
        "Ġn",
        "ight"
      ],
      [
        "Ġe",
        "GFR"
      ],
      [
        "ĠT",
        "SH"
      ],
      [
        "Ġch",
        "art"
      ],
      [
        "Ġat",
        "orvast"
      ],
      [
        "Ġcomp",
        "le"
      ],
      [
        "Ġatorvast",
        "atin"
      ],
      [
        "b",
        "le"
      ],
      [
        "Ġ",
        "D"
      ],
      [
        "Ġa",
        "void"
      ],
      [
        "Ġt",
        "o"
      ],
      [
        "Ġd",
        "ocum"
      ],
      [
        "ra",
        "d"
      ],
      [
        "il",
        "ure"
      ],
      [
        "ro",
        "ble"
      ],
      [
        "it",
        "ive"
      ],
      [
        "en",
        "ted"
      ],
      [
        "Ġhe",
        "art"
      ],
      [
        "os",
        "itive"
      ],
      [
        "Ġli",
        "s"
      ],
      [
        "Ġli",
        "st"
      ],
      [
        "Ġfa",
        "ilure"
      ],
      [
        "Ġdocum",
        "ented"
      ],
      [
        "roble",
        "m"
      ],
      [
        "%",
        ","
      ],
      [
        "4",
        "2"
      ],
      [
        "C",
        "OVID"
      ],
      [
        "C",
        "hest"
      ],
      [
        "D",
        "o"
      ],
      [
        "E",
        "mp"
      ],
      [
        "H",
        "om"
      ],
      [
        "I",
        "f"
      ],
      [
        "I",
        "m"
      ],
      [
        "L",
        "e"
      ],
      [
        "U",
        "n"
      ],
      [
        "a",
        "k"
      ],
      [
        "a",
        "u"
      ],
      [
        "a",
        "use"
      ],
      [
        "a",
        "me"
      ],
      [
        "a",
        "su"
      ],
      [
        "b",
        "ed"
      ],
      [
        "c",
        "ing"
      ],
      [
        "c",
        "er"
      ],
      [
        "c",
        "ri"
      ],
      [
        "d",
        "s"
      ],
      [
        "e",
        "ar"
      ],
      [
        "e",
        "pe"
      ],
      [
        "g",
        "n"
      ],
      [
        "g",
        "er"
      ],
      [
        "i",
        "um"
      ],
      [
        "i",
        "mp"
      ],
      [
        "i",
        "gn"
      ],
      [
        "k",
        "up"
      ],
      [
        "m",
        "u"
      ],
      [
        "m",
        "ia"
      ],
      [
        "m",
        "ory"
      ],
      [
        "n",
        "ts"
      ],
      [
        "o",
        "od"
      ],
      [
        "p",
        "ret"
      ],
      [
        "s",
        "is"
      ],
      [
        "s",
        "ified"
      ],
      [
        "s",
        "cri"
      ],
      [
        "t",
        "h"
      ],
      [
        "t",
        "he"
      ],
      [
        "t",
        "iv"
      ],
      [
        "u",
        "le"
      ],
      [
        "u",
        "tion"
      ],
      [
        "u",
        "cing"
      ],
      [
        "v",
        "arian"
      ],
      [
        "y",
        "ear"
      ],
      [
        "z",
        "il"
      ],
      [
        "Î",
        "²"
      ],
      [
        "Ġ",
        "P"
      ],
      [
        "Ġ",
        "id"
      ],
      [
        "Ġ",
        "hi"
      ],
      [
        "Ġ",
        "line"
      ],
      [
        "Ġ",
        "im"
      ],
      [
        "Ġ",
        "imp"
      ],
      [
        "in",
        "om"
      ],
      [
        "Ġc",
        "an"
      ],
      [
        "Ġc",
        "at"
      ],
      [
        "Ġc",
        "od"
      ],
      [
        "Ġc",
        "lar"
      ],
      [
        "Ġc",
        "ause"
      ],
      [
        "he",
        "et"
      ],
      [
        "Ġa",
        "s"
      ],
      [
        "Ġa",
        "re"
      ],
      [
        "se",
        "nts"
      ],
      [
        "on",
        "st"
      ],
      [
        "on",
        "epe"
      ],
      [
        "on",
        "th"
      ],
      [
        "Ġt",
        "ak"
      ],
      [
        "ic",
        "ine"
      ],
      [
        "ic",
        "ance"
      ],
      [
        "Ġm",
        "or"
      ],
      [
        "Ġm",
        "at"
      ],
      [
        "Ġm",
        "mo"
      ],
      [
        "Ġm",
        "onth"
      ],
      [
        "ar",
        "e"
      ],
      [
        "or",
        "ds"
      ],
      [
        "Ġin",
        "ter"
      ],
      [
        "Ġin",
        "to"
      ],
      [
        "Ġin",
        "ten"
      ],
      [
        "Ġp",
        "ain"
      ],
      [
        "ac",
        "tion"
      ],
      [
        "ac",
        "ter"
      ],
      [
        "Ġd",
        "isc"
      ],
      [
        "Ġd",
        "onepe"
      ],
      [
        "at",
        "ment"
      ],
      [
        "Ġ1",
        "9"
      ],
      [
        "Ġo",
        "the"
      ],
      [
        "Ġo",
        "varian"
      ],
      [
        "il",
        "m"
      ],
      [
        "Ġn",
        "au"
      ],
      [
        "le",
        "tion"
      ],
      [
        "Ġthe",
        "n"
      ],
      [
        "us",
        "s"
      ],
      [
        "it",
        "is"
      ],
      [
        "it",
        "ution"
      ],
      [
        "st",
        "ory"
      ],
      [
        "st",
        "arted"
      ],
      [
        "er",
        "s"
      ],
      [
        "Ġe",
        "xon"
      ],
      [
        "Ġlo",
        "ss"
      ],
      [
        "en",
        "oc"
      ],
      [
        "Ġf",
        "ive"
      ],
      [
        "Ġf",
        "ood"
      ],
      [
        "Ġf",
        "ilm"
      ],
      [
        "ve",
        "ill"
      ],
      [
        "ta",
        "in"
      ],
      [
        "ĠC",
        "T"
      ],
      [
        "Ġse",
        "ver"
      ],
      [
        "Ġemp",
        "ir"
      ],
      [
        "Ġb",
        "illin"
      ],
      [
        "Ġb",
        "acter"
      ],
      [
        "ler",
        "ance"
      ],
      [
        "un",
        "g"
      ],
      [
        "Ġst",
        "ill"
      ],
      [
        "Ġac",
        "tiv"
      ],
      [
        "ĠS",
        "tart"
      ],
      [
        "red",
        "ucing"
      ],
      [
        "Ġdi",
        "et"
      ],
      [
        "ĠE",
        "GFR"
      ],
      [
        "Ġs",
        "ame"
      ],
      [
        "Ġs",
        "ign"
      ],
      [
        "mun",
        "ology"
      ],
      [
        "arc",
        "inom"
      ],
      [
        "ent",
        "ified"
      ],
      [
        "Ġmyocard",
        "itis"
      ],
      [
        "if",
        "y"
      ],
      [
        "if",
        "icance"
      ],
      [
        "Ġre",
        "action"
      ],
      [
        "Ġre",
        "started"
      ],
      [
        "Ġr",
        "ule"
      ],
      [
        "Ġr",
        "are"
      ],
      [
        "Ġ6",
        "2"
      ],
      [
        "ks",
        "heet"
      ],
      [
        "Ġmed",
        "icine"
      ],
      [
        "Ġday",
        "s"
      ],
      [
        "Ġshow",
        "s"
      ],
      [
        "Neuro",
        "logy"
      ],
      [
        "Ġme",
        "asu"
      ],
      [
        "Ġme",
        "mory"
      ],
      [
        "Ġad",
        "enoc"
      ],
      [
        "Ġl",
        "ast"
      ],
      [
        "Ġl",
        "ab"
      ],
      [
        "Ġl",
        "ung"
      ],
      [
        "Ġconf",
        "use"
      ],
      [
        "Ġhel",
        "p"
      ],
      [
        "Ġris",
        "k"
      ],
      [
        "Ġun",
        "cer"
      ],
      [
        "Ġrec",
        "onst"
      ],
      [
        "Ġrec",
        "ords"
      ],
      [
        "ocum",
        "ent"
      ],
      [
        "ri",
        "ers"
      ],
      [
        "Ġpre",
        "scri"
      ],
      [
        "Ġpre",
        "sents"
      ],
      [
        "Ġwor",
        "kup"
      ],
      [
        "Ġwor",
        "ksheet"
      ],
      [
        "Ġneed",
        "s"
      ],
      [
        "Ġsur",
        "ger"
      ],
      [
        "Ġsur",
        "veill"
      ],
      [
        "Ġcar",
        "riers"
      ],
      [
        "Ġadjus",
        "t"
      ],
      [
        "Ġde",
        "letion"
      ],
      [
        "rov",
        "ed"
      ],
      [
        "Ġtre",
        "atment"
      ],
      [
        "Ġcomple",
        "te"
      ],
      [
        "ĠD",
        "ocument"
      ],
      [
        "Emp",
        "agliflozin"
      ],
      [
        "Hom",
        "e"
      ],
      [
        "Im",
        "munology"
      ],
      [
        "Le",
        "ft"
      ],
      [
        "Un",
        "its"
      ],
      [
        "mu",
        "ne"
      ],
      [
        "Ġid",
        "entified"
      ],
      [
        "Ġhi",
        "story"
      ],
      [
        "Ġim",
        "mune"
      ],
      [
        "Ġimp",
        "roved"
      ],
      [
        "Ġcat",
        "h"
      ],
      [
        "Ġcod",
        "es"
      ],
      [
        "Ġclar",
        "ify"
      ],
      [
        "Ġtak",
        "e"
      ],
      [
        "Ġmor",
        "ning"
      ],
      [
        "Ġmat",
        "ter"
      ],
      [
        "Ġmmo",
        "l"
      ],
      [
        "Ġinter",
        "pret"
      ],
      [
        "Ġinto",
        "lerance"
      ],
      [
        "Ġinten",
        "sified"
      ],
      [
        "Ġdisc",
        "uss"
      ],
      [
        "Ġdonepe",
        "zil"
      ],
      [
        "Ġothe",
        "r"
      ],
      [
        "Ġnau",
        "sea"
      ],
      [
        "Ġsever",
        "ity"
      ],
      [
        "Ġempir",
        "ic"
      ],
      [
        "Ġbillin",
        "g"
      ],
      [
        "Ġbacter",
        "ial"
      ],
      [
        "Ġactiv",
        "ated"
      ],
      [
        "Ġsign",
        "ificance"
      ],
      [
        "arcinom",
        "a"
      ],
      [
        "Ġrule",
        "d"
      ],
      [
        "Ġmedicine",
        "s"
      ],
      [
        "Ġmeasu",
        "red"
      ],
      [
        "Ġadenoc",
        "arcinoma"
      ],
      [
        "Ġuncer",
        "tain"
      ],
      [
        "Ġreconst",
        "itution"
      ],
      [
        "Ġprescri",
        "bed"
      ],
      [
        "Ġsurger",
        "y"
      ],
      [
        "Ġsurveill",
        "ance"
      ],
      [
        "7",
        "5"
      ],
      [
        "A",
        "ID"
      ],
      [
        "F",
        "I"
      ],
      [
        "H",
        "C"
      ],
      [
        "K",
        "D"
      ],
      [
        "R",
        "ad"
      ],
      [
        "S",
        "AID"
      ],
      [
        "a",
        "v"
      ],
      [
        "a",
        "x"
      ],
      [
        "a",
        "te"
      ],
      [
        "b",
        "al"
      ],
      [
        "c",
        "l"
      ],
      [
        "d",
        "oc"
      ],
      [
        "f",
        "f"
      ],
      [
        "g",
        "ine"
      ],
      [
        "h",
        "ro"
      ],
      [
        "i",
        "x"
      ],
      [
        "i",
        "ent"
      ],
      [
        "m",
        "id"
      ],
      [
        "m",
        "ycin"
      ],
      [
        "m",
        "ary"
      ],
      [
        "n",
        "doc"
      ],
      [
        "o",
        "le"
      ],
      [
        "p",
        "hro"
      ],
      [
        "r",
        "il"
      ],
      [
        "r",
        "ine"
      ],
      [
        "r",
        "im"
      ],
      [
        "t",
        "op"
      ],
      [
        "u",
        "lan"
      ],
      [
        "v",
        "or"
      ],
      [
        "z",
        "ith"
      ],
      [
        "z",
        "ole"
      ],
      [
        "Ġ",
        "be"
      ],
      [
        "Ġ",
        "FI"
      ],
      [
        "in",
        "op"
      ],
      [
        "Ġa",
        "mp"
      ],
      [
        "Ġa",
        "zith"
      ],
      [
        "se",
        "mid"
      ],
      [
        "Ġm",
        "inu"
      ],
      [
        "or",
        "ax"
      ],
      [
        "Ġin",
        "ste"
      ],
      [
        "Ġin",
        "su"
      ],
      [
        "an",
        "ge"
      ],
      [
        "an",
        "top"
      ],
      [
        "Ġp",
        "antop"
      ],
      [
        "at",
        "ient"
      ],
      [
        "lo",
        "on"
      ],
      [
        "ra",
        "zole"
      ],
      [
        "us",
        "ion"
      ],
      [
        "Ġap",
        "ix"
      ],
      [
        "ro",
        "mycin"
      ],
      [
        "er",
        "ified"
      ],
      [
        "Ġv",
        "erified"
      ],
      [
        "um",
        "mary"
      ],
      [
        "Ġe",
        "ff"
      ],
      [
        "ed",
        "ti"
      ],
      [
        "Ġf",
        "uro"
      ],
      [
        "Ġf",
        "ollow"
      ],
      [
        "ĠI",
        "HC"
      ],
      [
        "ĠC",
        "KD"
      ],
      [
        "lif",
        "ied"
      ],
      [
        "ĠN",
        "SAID"
      ],
      [
        "Ġb",
        "rad"
      ],
      [
        "Ġb",
        "edti"
      ],
      [
        "Ġ2",
        "5"
      ],
      [
        "atho",
        "logy"
      ],
      [
        "Ġ8",
        "75"
      ],
      [
        "yc",
        "ard"
      ],
      [
        "oth",
        "orax"
      ],
      [
        "Ġpneum",
        "othorax"
      ],
      [
        "Ġs",
        "ummary"
      ],
      [
        "Ġ5",
        "0"
      ],
      [
        "Ġ5",
        "2"
      ],
      [
        "Ġ5",
        "00"
      ],
      [
        "Ġr",
        "ange"
      ],
      [
        "ab",
        "an"
      ],
      [
        "al",
        "s"
      ],
      [
        "Ġme",
        "als"
      ],
      [
        "Ġcontinu",
        "ed"
      ],
      [
        "Ġinclude",
        "s"
      ],
      [
        "Ġg",
        "lar"
      ],
      [
        "Ġfa",
        "lls"
      ],
      [
        "Ġfa",
        "vor"
      ],
      [
        "har",
        "ge"
      ],
      [
        "Ġun",
        "its"
      ],
      [
        "Ġcar",
        "e"
      ],
      [
        "isc",
        "harge"
      ],
      [
        "Ġadjus",
        "ted"
      ],
      [
        "Ġdo",
        "se"
      ],
      [
        "Ġdo",
        "or"
      ],
      [
        "Ġrepor",
        "ts"
      ],
      [
        "Ġlis",
        "inop"
      ],
      [
        "Rad",
        "iology"
      ],
      [
        "av",
        "ulan"
      ],
      [
        "bal",
        "loon"
      ],
      [
        "cl",
        "avulan"
      ],
      [
        "ndoc",
        "rine"
      ],
      [
        "phro",
        "logy"
      ],
      [
        "rim",
        "ary"
      ],
      [
        "Ġbe",
        "low"
      ],
      [
        "ĠFI",
        "SH"
      ],
      [
        "Ġamp",
        "lified"
      ],
      [
        "Ġazith",
        "romycin"
      ],
      [
        "semid",
        "e"
      ],
      [
        "Ġminu",
        "tes"
      ],
      [
        "Ġinste",
        "ad"
      ],
      [
        "Ġinsu",
        "lin"
      ],
      [
        "Ġpantop",
        "razole"
      ],
      [
        "Ġapix",
        "aban"
      ],
      [
        "Ġeff",
        "usion"
      ],
      [
        "Ġfuro",
        "semide"
      ],
      [
        "ĠNSAID",
        "s"
      ],
      [
        "Ġbrad",
        "ycard"
      ],
      [
        "Ġbedti",
        "me"
      ],
      [
        "Ġglar",
        "gine"
      ],
      [
        "Ġfavor",
        "s"
      ],
      [
        "Ġlisinop",
        "ril"
      ],
      [
        "clavulan",
        "ate"
      ],
      [
        "Ġbradycard",
        "ia"
      ],
      [
        "1",
        "2"
      ],
      [
        "1",
        "8"
      ],
      [
        "5",
        "0"
      ],
      [
        "A",
        "S"
      ],
      [
        "C",
        "U"
      ],
      [
        "D",
        "ischarge"
      ],
      [
        "E",
        "ndocrine"
      ],
      [
        "H",
        "old"
      ],
      [
        "I",
        "maging"
      ],
      [
        "I",
        "CU"
      ],
      [
        "K",
        "R"
      ],
      [
        "P",
        "roblem"
      ],
      [
        "P",
        "atient"
      ],
      [
        "P",
        "athology"
      ],
      [
        "P",
        "rimary"
      ],
      [
        "S",
        "tart"
      ],
      [
        "c",
        "ified"
      ],
      [
        "d",
        "ication"
      ],
      [
        "e",
        "mia"
      ],
      [
        "g",
        "l"
      ],
      [
        "h",
        "ype"
      ],
      [
        "i",
        "z"
      ],
      [
        "i",
        "op"
      ],
      [
        "l",
        "z"
      ],
      [
        "p",
        "t"
      ],
      [
        "p",
        "ositive"
      ],
      [
        "r",
        "gl"
      ],
      [
        "s",
        "y"
      ],
      [
        "s",
        "pe"
      ],
      [
        "Ġ",
        "KR"
      ],
      [
        "Ġ",
        "hype"
      ],
      [
        "in",
        "dication"
      ],
      [
        "he",
        "im"
      ],
      [
        "Ġt",
        "om"
      ],
      [
        "Ġm",
        "ut"
      ],
      [
        "or",
        "ro"
      ],
      [
        "at",
        "us"
      ],
      [
        "Ġo",
        "pt"
      ],
      [
        "Ġw",
        "it"
      ],
      [
        "pe",
        "at"
      ],
      [
        "it",
        "us"
      ],
      [
        "ho",
        "ut"
      ],
      [
        "Ġv",
        "ol"
      ],
      [
        "um",
        "e"
      ],
      [
        "Ġb",
        "iop"
      ],
      [
        "ĠA",
        "lz"
      ],
      [
        "Ġst",
        "op"
      ],
      [
        "Ġst",
        "arted"
      ],
      [
        "Ġst",
        "atus"
      ],
      [
        "yc",
        "emia"
      ],
      [
        "ll",
        "itus"
      ],
      [
        "qu",
        "id"
      ],
      [
        "Re",
        "peat"
      ],
      [
        "art",
        "ment"
      ],
      [
        "Ne",
        "phrology"
      ],
      [
        "Ġcontra",
        "indication"
      ],
      [
        "Ġme",
        "llitus"
      ],
      [
        "im",
        "iz"
      ],
      [
        "Ġli",
        "quid"
      ],
      [
        "Ġun",
        "spe"
      ],
      [
        "Ġcomp",
        "artment"
      ],
      [
        "Ġrepor",
        "ted"
      ],
      [
        "rgl",
        "ycemia"
      ],
      [
        "ĠKR",
        "AS"
      ],
      [
        "Ġhype",
        "rglycemia"
      ],
      [
        "heim",
        "er"
      ],
      [
        "Ġtom",
        "orro"
      ],
      [
        "Ġmut",
        "ation"
      ],
      [
        "Ġopt",
        "imiz"
      ],
      [
        "Ġwit",
        "hout"
      ],
      [
        "Ġvol",
        "ume"
      ],
      [
        "Ġbiop",
        "sy"
      ],
      [
        "ĠAlz",
        "heimer"
      ],
      [
        "Ġunspe",
        "cified"
      ],
      [
        "Ġtomorro",
        "w"
      ],
      [
        "Ġoptimiz",
        "ed"
      ],
      [
        "3",
        "8"
      ],
      [
        "7",
        "3"
      ],
      [
        "D",
        "L"
      ],
      [
        "I",
        "U"
      ],
      [
        "I",
        "V"
      ],
      [
        "L",
        "DL"
      ],
      [
        "d",
        "ium"
      ],
      [
        "i",
        "ra"
      ],
      [
        "l",
        "y"
      ],
      [
        "l",
        "ta"
      ],
      [
        "m",
        "ain"
      ],
      [
        "o",
        "ve"
      ],
      [
        "o",
        "ta"
      ],
      [
        "v",
        "anc"
      ],
      [
        "Ġ",
        "so"
      ],
      [
        "Ġ",
        "LDL"
      ],
      [
        "Ġc",
        "ho"
      ],
      [
        "Ġt",
        "it"
      ],
      [
        "Ġm",
        "L"
      ],
      [
        "Ġm",
        "IU"
      ],
      [
        "Ġp",
        "ositive"
      ],
      [
        "Ġp",
        "ota"
      ],
      [
        "Ġ1",
        "42"
      ],
      [
        "Ġ1",
        "38"
      ],
      [
        "ra",
        "ted"
      ],
      [
        "Ġn",
        "g"
      ],
      [
        "le",
        "ste"
      ],
      [
        "ro",
        "l"
      ],
      [
        "Ġcon",
        "sis"
      ],
      [
        "Ġan",
        "ti"
      ],
      [
        "Ġ2",
        "8"
      ],
      [
        "ĠH",
        "IV"
      ],
      [
        "Ġdi",
        "ure"
      ],
      [
        "Ġ18",
        "00"
      ],
      [
        "Ġre",
        "main"
      ],
      [
        "ss",
        "ium"
      ],
      [
        "Ġad",
        "vanc"
      ],
      [
        "Ġho",
        "ur"
      ],
      [
        "Ġrec",
        "ove"
      ],
      [
        "ten",
        "t"
      ],
      [
        "Ġde",
        "lta"
      ],
      [
        "ret",
        "rov"
      ],
      [
        "Ġnight",
        "ly"
      ],
      [
        "ira",
        "l"
      ],
      [
        "Ġso",
        "dium"
      ],
      [
        "Ġcho",
        "leste"
      ],
      [
        "Ġtit",
        "rated"
      ],
      [
        "Ġpota",
        "ssium"
      ],
      [
        "Ġconsis",
        "tent"
      ],
      [
        "Ġanti",
        "retrov"
      ],
      [
        "Ġdiure",
        "sis"
      ],
      [
        "Ġadvanc",
        "ed"
      ],
      [
        "Ġhour",
        "s"
      ],
      [
        "Ġrecove",
        "red"
      ],
      [
        "Ġcholeste",
        "rol"
      ],
      [
        "Ġantiretrov",
        "iral"
      ],
      [
        "2",
        "1"
      ],
      [
        "9",
        "11"
      ],
      [
        "a",
        "ll"
      ],
      [
        "d",
        "ho"
      ],
      [
        "g",
        "an"
      ],
      [
        "g",
        "rap"
      ],
      [
        "h",
        "is"
      ],
      [
        "i",
        "o"
      ],
      [
        "i",
        "or"
      ],
      [
        "i",
        "es"
      ],
      [
        "o",
        "o"
      ],
      [
        "r",
        "ia"
      ],
      [
        "s",
        "h"
      ],
      [
        "Ġ",
        "J"
      ],
      [
        "Ġ",
        "or"
      ],
      [
        "Ġ",
        "ra"
      ],
      [
        "Ġ",
        "rad"
      ],
      [
        "Ġa",
        "ne"
      ],
      [
        "Ġt",
        "his"
      ],
      [
        "Ġp",
        "enic"
      ],
      [
        "Ġp",
        "roblem"
      ],
      [
        "Ġw",
        "all"
      ],
      [
        "il",
        "dho"
      ],
      [
        "Ġan",
        "ter"
      ],
      [
        "Ġse",
        "as"
      ],
      [
        "Ġser",
        "ies"
      ],
      [
        "is",
        "m"
      ],
      [
        "Ġb",
        "oo"
      ],
      [
        "ft",
        "ria"
      ],
      [
        "ste",
        "r"
      ],
      [
        "ĠE",
        "R"
      ],
      [
        "Ġch",
        "ildho"
      ],
      [
        "iv",
        "en"
      ],
      [
        "Ġce",
        "ftria"
      ],
      [
        "Ġr",
        "ight"
      ],
      [
        "Ġg",
        "iven"
      ],
      [
        "Ġ20",
        "21"
      ],
      [
        "xon",
        "e"
      ],
      [
        "Ġtre",
        "ated"
      ],
      [
        "Ġcomple",
        "ted"
      ],
      [
        "Ġlis",
        "ted"
      ],
      [
        "ĠP",
        "R"
      ],
      [
        "gan",
        "ism"
      ],
      [
        "grap",
        "h"
      ],
      [
        "io",
        "graph"
      ],
      [
        "Ġor",
        "ganism"
      ],
      [
        "Ġra",
        "sh"
      ],
      [
        "Ġrad",
        "iograph"
      ],
      [
        "Ġane",
        "mia"
      ],
      [
        "Ġpenic",
        "illin"
      ],
      [
        "Ġanter",
        "ior"
      ],
      [
        "Ġseas",
        "on"
      ],
      [
        "Ġboo",
        "ster"
      ],
      [
        "Ġchildho",
        "od"
      ],
      [
        "Ġceftria",
        "xone"
      ]
    ]
  }
}